/* This header file contains the definition of the unsigned char array that represents 
the binary format of the TensorFlow Lite model to be run by the Arduino sketch. 
This TensorFlow Lite model was generated on an external development system, 
where the original Deep Neural Network model was created and trained. 
The trained model was saved in .tflite format and its hexadecimal dump was used to build 
the following declaration with initialization of the model array.
The alignas(16) directive is used to ensure that the array is aligned on a 16-byte boundary,
this is important for performance and to prevent some issues on ARM microcontroller architectures.
int8[-1,8,8]
*/
alignas(16) const unsigned char model[] = {
    0x20,0x00,0x00,0x00,0x54,0x46,0x4c,0x33,0x00,0x00,0x00,0x00,
    0x14,0x00,0x20,0x00,0x1c,0x00,0x18,0x00,0x14,0x00,0x10,0x00,
    0x0c,0x00,0x00,0x00,0x08,0x00,0x04,0x00,0x14,0x00,0x00,0x00,
    0x1c,0x00,0x00,0x00,0x1c,0x00,0x00,0x00,0x4c,0x00,0x00,0x00,
    0x00,0x03,0x00,0x00,0x10,0x03,0x00,0x00,0x38,0x0f,0x00,0x00,
    0x03,0x00,0x00,0x00,0x00,0x00,0x00,0x00,0x01,0x00,0x00,0x00,
    0x0c,0x00,0x00,0x00,0x08,0x00,0x0c,0x00,0x08,0x00,0x04,0x00,
    0x08,0x00,0x00,0x00,0x11,0x00,0x00,0x00,0x04,0x00,0x00,0x00,
    0x13,0x00,0x00,0x00,0x6d,0x69,0x6e,0x5f,0x72,0x75,0x6e,0x74,
    0x69,0x6d,0x65,0x5f,0x76,0x65,0x72,0x73,0x69,0x6f,0x6e,0x00,
    0x12,0x00,0x00,0x00,0xb0,0x02,0x00,0x00,0xa8,0x02,0x00,0x00,
    0x90,0x02,0x00,0x00,0x30,0x02,0x00,0x00,0x00,0x02,0x00,0x00,
    0xd0,0x00,0x00,0x00,0xb0,0x00,0x00,0x00,0x98,0x00,0x00,0x00,
    0x80,0x00,0x00,0x00,0x6c,0x00,0x00,0x00,0x54,0x00,0x00,0x00,
    0x4c,0x00,0x00,0x00,0x44,0x00,0x00,0x00,0x3c,0x00,0x00,0x00,
    0x34,0x00,0x00,0x00,0x2c,0x00,0x00,0x00,0x24,0x00,0x00,0x00,
    0x04,0x00,0x00,0x00,0xb6,0xfd,0xff,0xff,0x04,0x00,0x00,0x00,
    0x10,0x00,0x00,0x00,0x31,0x2e,0x31,0x34,0x2e,0x30,0x00,0x00,
    0x00,0x00,0x00,0x00,0x00,0x00,0x00,0x00,0x50,0xf2,0xff,0xff,
    0x54,0xf2,0xff,0xff,0x58,0xf2,0xff,0xff,0x5c,0xf2,0xff,0xff,
    0x60,0xf2,0xff,0xff,0x64,0xf2,0xff,0xff,0xea,0xfd,0xff,0xff,
    0x04,0x00,0x00,0x00,0x08,0x00,0x00,0x00,0x48,0xe8,0xff,0xff,
    0xb8,0x17,0x00,0x00,0xfe,0xfd,0xff,0xff,0x04,0x00,0x00,0x00,
    0x04,0x00,0x00,0x00,0x74,0x7f,0x94,0x83,0x0e,0xfe,0xff,0xff,
    0x04,0x00,0x00,0x00,0x08,0x00,0x00,0x00,0xef,0x01,0x00,0x00,
    0x29,0x01,0x00,0x00,0x22,0xfe,0xff,0xff,0x04,0x00,0x00,0x00,
    0x08,0x00,0x00,0x00,0x25,0xb0,0xb4,0xb2,0x1b,0x9e,0x86,0x81,
    0x36,0xfe,0xff,0xff,0x04,0x00,0x00,0x00,0x10,0x00,0x00,0x00,
    0x3e,0x00,0x00,0x00,0x17,0x00,0x00,0x00,0x13,0x00,0x00,0x00,
    0x1d,0x00,0x00,0x00,0x52,0xfe,0xff,0xff,0x04,0x00,0x00,0x00,
    0x20,0x01,0x00,0x00,0x0c,0x87,0x04,0xbf,0x05,0xf3,0x09,0x0a,
    0x0e,0x12,0xf1,0xcd,0x03,0x02,0x30,0xec,0xfe,0x46,0xf1,0x8e,
    0xf6,0x0d,0x00,0xbd,0x0d,0xab,0x19,0x17,0xf8,0xbc,0xfb,0x09,
    0xfe,0x12,0x1f,0x24,0x0f,0x19,0xf4,0xf2,0x01,0xf1,0x0a,0xe9,
    0x22,0xec,0xcc,0xde,0x1a,0xb3,0xf4,0x0b,0xfa,0xc8,0x1c,0xf8,
    0x81,0x41,0x08,0x20,0x9f,0xfa,0x0c,0xbd,0xd7,0xdc,0x8a,0x45,
    0xc0,0xfe,0x3d,0xc1,0x06,0x04,0xef,0xed,0xf1,0xe9,0x01,0x0a,
    0x14,0xff,0x03,0xe2,0x04,0xd7,0x0f,0x0c,0x37,0xdf,0xf2,0x25,
    0x08,0xe5,0x2d,0xf2,0xcd,0x0d,0xe0,0x0f,0xda,0x0b,0x12,0xf0,
    0xf3,0x08,0x09,0xee,0xf6,0x0e,0x24,0xf9,0x0f,0x02,0x16,0xb0,
    0x16,0xf9,0x06,0xff,0xd3,0xfd,0xf3,0xef,0xda,0x0f,0x81,0xdb,
    0x05,0x0b,0xfd,0xea,0xee,0xf3,0xb2,0xf3,0x19,0x13,0x11,0xeb,
    0x24,0x01,0x0c,0x05,0x10,0xf8,0xf9,0xf3,0x04,0x17,0x05,0xe0,
    0x22,0xe9,0x02,0x11,0x0d,0xd1,0x0b,0xea,0x13,0xda,0xfb,0x45,
    0x1f,0x35,0x1b,0xe3,0xe9,0x0b,0xda,0xff,0xd0,0x06,0x05,0xfe,
    0x11,0xf1,0x0a,0xce,0xef,0x1f,0x1f,0x00,0x23,0xcf,0x05,0x15,
    0x0e,0xda,0xff,0xf6,0xa1,0x07,0xe6,0x0e,0xc6,0x14,0x8e,0xe5,
    0xf6,0x11,0x05,0xd6,0xf5,0xdb,0xee,0x0d,0x20,0x1b,0x20,0x81,
    0x30,0xd3,0x31,0xff,0xe1,0x17,0xf0,0xfb,0xfb,0x05,0x02,0xea,
    0x0f,0x12,0xe8,0x14,0xea,0xf4,0x17,0x07,0xff,0xe9,0x13,0xe6,
    0x10,0x13,0x1f,0xff,0x07,0xf7,0xae,0x0d,0xf1,0x13,0xf1,0xef,
    0xe9,0x02,0x12,0xe5,0xdc,0x02,0xc8,0x06,0x20,0x19,0x0c,0x81,
    0x0d,0xf1,0xe8,0x0b,0xeb,0xe5,0x10,0x21,0x08,0xa1,0x0b,0xe2,
    0x06,0x05,0x10,0x0a,0xfb,0xec,0xe9,0xf7,0xfc,0x09,0xf9,0xec,
    0x04,0xbb,0xfc,0x1a,0x7e,0xff,0xff,0xff,0x04,0x00,0x00,0x00,
    0x20,0x00,0x00,0x00,0x24,0x00,0x00,0x00,0x17,0x00,0x00,0x00,
    0x23,0x00,0x00,0x00,0x0c,0x00,0x00,0x00,0x05,0x00,0x00,0x00,
    0xd6,0xfe,0xff,0xff,0x0b,0x00,0x00,0x00,0x03,0x00,0x00,0x00,
    0xaa,0xff,0xff,0xff,0x04,0x00,0x00,0x00,0x48,0x00,0x00,0x00,
    0x0b,0xe1,0x81,0xec,0x0a,0xf1,0x68,0xf4,0x12,0x17,0xd2,0x23,
    0xee,0x58,0x7f,0xb6,0x03,0x4d,0xd8,0xfa,0x1a,0x04,0x18,0x42,
    0x01,0x7f,0x41,0x0c,0x17,0x18,0x00,0x01,0xc5,0xf2,0x05,0x81,
    0xe0,0x8a,0xb7,0x40,0xe5,0x41,0x76,0x26,0x7f,0x28,0xf8,0x46,
    0xb9,0x40,0xc5,0x36,0xe9,0x7f,0xd5,0x33,0x81,0x42,0x0b,0x18,
    0x13,0x06,0xf4,0x2f,0x7f,0x3b,0x14,0x3d,0xe2,0x68,0x45,0xac,
    0x00,0x00,0x06,0x00,0x08,0x00,0x04,0x00,0x06,0x00,0x00,0x00,
    0x04,0x00,0x00,0x00,0x08,0x00,0x00,0x00,0x01,0x00,0x00,0x00,
    0x02,0x00,0x00,0x00,0x98,0xf4,0xff,0xff,0x9c,0xf4,0xff,0xff,
    0x0f,0x00,0x00,0x00,0x4d,0x4c,0x49,0x52,0x20,0x43,0x6f,0x6e,
    0x76,0x65,0x72,0x74,0x65,0x64,0x2e,0x00,0x01,0x00,0x00,0x00,
    0x14,0x00,0x00,0x00,0x00,0x00,0x0e,0x00,0x18,0x00,0x14,0x00,
    0x10,0x00,0x0c,0x00,0x08,0x00,0x04,0x00,0x0e,0x00,0x00,0x00,
    0x14,0x00,0x00,0x00,0x1c,0x00,0x00,0x00,0xd4,0x01,0x00,0x00,
    0xd8,0x01,0x00,0x00,0xdc,0x01,0x00,0x00,0x04,0x00,0x00,0x00,
    0x6d,0x61,0x69,0x6e,0x00,0x00,0x00,0x00,0x06,0x00,0x00,0x00,
    0x6c,0x01,0x00,0x00,0x18,0x01,0x00,0x00,0xc4,0x00,0x00,0x00,
    0x80,0x00,0x00,0x00,0x3c,0x00,0x00,0x00,0x04,0x00,0x00,0x00,
    0x5a,0xff,0xff,0xff,0x14,0x00,0x00,0x00,0x00,0x00,0x00,0x08,
    0x10,0x00,0x00,0x00,0x14,0x00,0x00,0x00,0x03,0x00,0x00,0x00,
    0x24,0xf5,0xff,0xff,0x01,0x00,0x00,0x00,0x0f,0x00,0x00,0x00,
    0x03,0x00,0x00,0x00,0x0e,0x00,0x00,0x00,0x08,0x00,0x00,0x00,
    0x09,0x00,0x00,0x00,0x8e,0xff,0xff,0xff,0x1c,0x00,0x00,0x00,
    0x00,0x00,0x00,0x08,0x1c,0x00,0x00,0x00,0x20,0x00,0x00,0x00,
    0x03,0x00,0x00,0x00,0x00,0x00,0x06,0x00,0x08,0x00,0x07,0x00,
    0x06,0x00,0x00,0x00,0x00,0x00,0x00,0x01,0x01,0x00,0x00,0x00,
    0x0e,0x00,0x00,0x00,0x03,0x00,0x00,0x00,0x0d,0x00,0x00,0x00,
    0x06,0x00,0x00,0x00,0x07,0x00,0x00,0x00,0xce,0xff,0xff,0xff,
    0x14,0x00,0x00,0x00,0x00,0x00,0x00,0x1b,0x10,0x00,0x00,0x00,
    0x14,0x00,0x00,0x00,0x02,0x00,0x00,0x00,0x98,0xf5,0xff,0xff,
    0x01,0x00,0x00,0x00,0x0d,0x00,0x00,0x00,0x02,0x00,0x00,0x00,
    0x0c,0x00,0x00,0x00,0x01,0x00,0x00,0x00,0x00,0x00,0x0e,0x00,
    0x1a,0x00,0x14,0x00,0x10,0x00,0x0c,0x00,0x0b,0x00,0x04,0x00,
    0x0e,0x00,0x00,0x00,0x24,0x00,0x00,0x00,0x00,0x00,0x00,0x05,
    0x34,0x00,0x00,0x00,0x38,0x00,0x00,0x00,0x01,0x00,0x00,0x00,
    0x00,0x00,0x0e,0x00,0x18,0x00,0x17,0x00,0x10,0x00,0x0c,0x00,
    0x08,0x00,0x04,0x00,0x0e,0x00,0x00,0x00,0x02,0x00,0x00,0x00,
    0x02,0x00,0x00,0x00,0x02,0x00,0x00,0x00,0x02,0x00,0x00,0x00,
    0x00,0x00,0x00,0x01,0x01,0x00,0x00,0x00,0x0c,0x00,0x00,0x00,
    0x01,0x00,0x00,0x00,0x0b,0x00,0x00,0x00,0xbe,0xff,0xff,0xff,
    0x10,0x00,0x00,0x00,0x00,0x00,0x00,0x01,0x1c,0x00,0x00,0x00,
    0x20,0x00,0x00,0x00,0xb0,0xff,0xff,0xff,0x00,0x00,0x00,0x01,
    0x01,0x00,0x00,0x00,0x01,0x00,0x00,0x00,0x00,0x00,0x00,0x01,
    0x01,0x00,0x00,0x00,0x0b,0x00,0x00,0x00,0x03,0x00,0x00,0x00,
    0x0a,0x00,0x00,0x00,0x04,0x00,0x00,0x00,0x05,0x00,0x00,0x00,
    0x00,0x00,0x0e,0x00,0x14,0x00,0x00,0x00,0x10,0x00,0x0c,0x00,
    0x0b,0x00,0x04,0x00,0x0e,0x00,0x00,0x00,0x1c,0x00,0x00,0x00,
    0x00,0x00,0x00,0x01,0x28,0x00,0x00,0x00,0x2c,0x00,0x00,0x00,
    0x0c,0x00,0x14,0x00,0x13,0x00,0x0c,0x00,0x08,0x00,0x07,0x00,
    0x0c,0x00,0x00,0x00,0x00,0x00,0x00,0x01,0x01,0x00,0x00,0x00,
    0x01,0x00,0x00,0x00,0x00,0x00,0x00,0x01,0x01,0x00,0x00,0x00,
    0x0a,0x00,0x00,0x00,0x03,0x00,0x00,0x00,0x00,0x00,0x00,0x00,
    0x02,0x00,0x00,0x00,0x03,0x00,0x00,0x00,0x01,0x00,0x00,0x00,
    0x0f,0x00,0x00,0x00,0x01,0x00,0x00,0x00,0x00,0x00,0x00,0x00,
    0x10,0x00,0x00,0x00,0xa4,0x09,0x00,0x00,0x24,0x09,0x00,0x00,
    0x50,0x08,0x00,0x00,0x4c,0x07,0x00,0x00,0xb8,0x06,0x00,0x00,
    0xdc,0x05,0x00,0x00,0x78,0x05,0x00,0x00,0xfc,0x04,0x00,0x00,
    0x90,0x04,0x00,0x00,0x14,0x04,0x00,0x00,0x28,0x03,0x00,0x00,
    0x34,0x02,0x00,0x00,0xa0,0x01,0x00,0x00,0x14,0x01,0x00,0x00,
    0x70,0x00,0x00,0x00,0x04,0x00,0x00,0x00,0xb0,0xf6,0xff,0xff,
    0x18,0x00,0x00,0x00,0x20,0x00,0x00,0x00,0x40,0x00,0x00,0x00,
    0x10,0x00,0x00,0x00,0x00,0x00,0x00,0x09,0x44,0x00,0x00,0x00,
    0x02,0x00,0x00,0x00,0xff,0xff,0xff,0xff,0x02,0x00,0x00,0x00,
    0x94,0xf6,0xff,0xff,0x08,0x00,0x00,0x00,0x14,0x00,0x00,0x00,
    0x01,0x00,0x00,0x00,0xfc,0xff,0xff,0xff,0xff,0xff,0xff,0xff,
    0x00,0x00,0x00,0x00,0x01,0x00,0x00,0x00,0x9c,0xff,0x40,0x3e,
    0x08,0x00,0x00,0x00,0x49,0x64,0x65,0x6e,0x74,0x69,0x74,0x79,
    0x00,0x00,0x00,0x00,0x02,0x00,0x00,0x00,0x01,0x00,0x00,0x00,
    0x02,0x00,0x00,0x00,0x18,0xf7,0xff,0xff,0x18,0x00,0x00,0x00,
    0x20,0x00,0x00,0x00,0x3c,0x00,0x00,0x00,0x0f,0x00,0x00,0x00,
    0x00,0x00,0x00,0x09,0x7c,0x00,0x00,0x00,0x02,0x00,0x00,0x00,
    0xff,0xff,0xff,0xff,0x02,0x00,0x00,0x00,0xfc,0xf6,0xff,0xff,
    0x08,0x00,0x00,0x00,0x10,0x00,0x00,0x00,0x01,0x00,0x00,0x00,
    0x80,0xff,0xff,0xff,0xff,0xff,0xff,0xff,0x01,0x00,0x00,0x00,
    0x26,0x00,0xac,0x3c,0x46,0x00,0x00,0x00,0x73,0x65,0x71,0x75,
    0x65,0x6e,0x74,0x69,0x61,0x6c,0x2f,0x64,0x65,0x6e,0x73,0x65,
    0x2f,0x4d,0x61,0x74,0x4d,0x75,0x6c,0x3b,0x73,0x65,0x71,0x75,
    0x65,0x6e,0x74,0x69,0x61,0x6c,0x2f,0x64,0x65,0x6e,0x73,0x65,
    0x2f,0x42,0x69,0x61,0x73,0x41,0x64,0x64,0x3b,0x73,0x65,0x71,
    0x75,0x65,0x6e,0x74,0x69,0x61,0x6c,0x2f,0x64,0x65,0x6e,0x73,
    0x65,0x2f,0x52,0x65,0x6c,0x75,0x00,0x00,0x02,0x00,0x00,0x00,
    0x01,0x00,0x00,0x00,0x02,0x00,0x00,0x00,0xb8,0xf7,0xff,0xff,
    0x18,0x00,0x00,0x00,0x20,0x00,0x00,0x00,0x40,0x00,0x00,0x00,
    0x0e,0x00,0x00,0x00,0x00,0x00,0x00,0x09,0x64,0x00,0x00,0x00,
    0x02,0x00,0x00,0x00,0xff,0xff,0xff,0xff,0x04,0x00,0x00,0x00,
    0x9c,0xf7,0xff,0xff,0x08,0x00,0x00,0x00,0x14,0x00,0x00,0x00,
    0x01,0x00,0x00,0x00,0x80,0xff,0xff,0xff,0xff,0xff,0xff,0xff,
    0x00,0x00,0x00,0x00,0x01,0x00,0x00,0x00,0x2f,0xa4,0x20,0x3d,
    0x28,0x00,0x00,0x00,0x73,0x65,0x71,0x75,0x65,0x6e,0x74,0x69,
    0x61,0x6c,0x2f,0x67,0x6c,0x6f,0x62,0x61,0x6c,0x5f,0x61,0x76,
    0x65,0x72,0x61,0x67,0x65,0x5f,0x70,0x6f,0x6f,0x6c,0x69,0x6e,
    0x67,0x32,0x64,0x2f,0x4d,0x65,0x61,0x6e,0x00,0x00,0x00,0x00,
    0x02,0x00,0x00,0x00,0x01,0x00,0x00,0x00,0x04,0x00,0x00,0x00,
    0x40,0xf8,0xff,0xff,0x18,0x00,0x00,0x00,0x28,0x00,0x00,0x00,
    0x48,0x00,0x00,0x00,0x0d,0x00,0x00,0x00,0x00,0x00,0x00,0x09,
    0x64,0x00,0x00,0x00,0x04,0x00,0x00,0x00,0xff,0xff,0xff,0xff,
    0x02,0x00,0x00,0x00,0x02,0x00,0x00,0x00,0x04,0x00,0x00,0x00,
    0x2c,0xf8,0xff,0xff,0x08,0x00,0x00,0x00,0x14,0x00,0x00,0x00,
    0x01,0x00,0x00,0x00,0x80,0xff,0xff,0xff,0xff,0xff,0xff,0xff,
    0x00,0x00,0x00,0x00,0x01,0x00,0x00,0x00,0x99,0x67,0x62,0x3d,
    0x20,0x00,0x00,0x00,0x73,0x65,0x71,0x75,0x65,0x6e,0x74,0x69,
    0x61,0x6c,0x2f,0x6d,0x61,0x78,0x5f,0x70,0x6f,0x6f,0x6c,0x69,
    0x6e,0x67,0x32,0x64,0x2f,0x4d,0x61,0x78,0x50,0x6f,0x6f,0x6c,
    0x00,0x00,0x00,0x00,0x04,0x00,0x00,0x00,0x01,0x00,0x00,0x00,
    0x02,0x00,0x00,0x00,0x02,0x00,0x00,0x00,0x04,0x00,0x00,0x00,
    0xd0,0xf8,0xff,0xff,0x18,0x00,0x00,0x00,0x28,0x00,0x00,0x00,
    0x48,0x00,0x00,0x00,0x0c,0x00,0x00,0x00,0x00,0x00,0x00,0x09,
    0xc4,0x00,0x00,0x00,0x04,0x00,0x00,0x00,0xff,0xff,0xff,0xff,
    0x04,0x00,0x00,0x00,0x04,0x00,0x00,0x00,0x04,0x00,0x00,0x00,
    0xbc,0xf8,0xff,0xff,0x08,0x00,0x00,0x00,0x14,0x00,0x00,0x00,
    0x01,0x00,0x00,0x00,0x80,0xff,0xff,0xff,0xff,0xff,0xff,0xff,
    0x00,0x00,0x00,0x00,0x01,0x00,0x00,0x00,0x99,0x67,0x62,0x3d,
    0x83,0x00,0x00,0x00,0x73,0x65,0x71,0x75,0x65,0x6e,0x74,0x69,
    0x61,0x6c,0x2f,0x63,0x6f,0x6e,0x76,0x32,0x64,0x5f,0x31,0x2f,
    0x52,0x65,0x6c,0x75,0x3b,0x73,0x65,0x71,0x75,0x65,0x6e,0x74,
    0x69,0x61,0x6c,0x2f,0x63,0x6f,0x6e,0x76,0x32,0x64,0x5f,0x31,
    0x2f,0x42,0x69,0x61,0x73,0x41,0x64,0x64,0x3b,0x73,0x65,0x71,
    0x75,0x65,0x6e,0x74,0x69,0x61,0x6c,0x2f,0x63,0x6f,0x6e,0x76,
    0x32,0x64,0x5f,0x31,0x2f,0x43,0x6f,0x6e,0x76,0x32,0x44,0x3b,
    0x73,0x65,0x71,0x75,0x65,0x6e,0x74,0x69,0x61,0x6c,0x2f,0x63,
    0x6f,0x6e,0x76,0x32,0x64,0x5f,0x31,0x2f,0x42,0x69,0x61,0x73,
    0x41,0x64,0x64,0x2f,0x52,0x65,0x61,0x64,0x56,0x61,0x72,0x69,
    0x61,0x62,0x6c,0x65,0x4f,0x70,0x2f,0x72,0x65,0x73,0x6f,0x75,
    0x72,0x63,0x65,0x00,0x04,0x00,0x00,0x00,0x01,0x00,0x00,0x00,
    0x04,0x00,0x00,0x00,0x04,0x00,0x00,0x00,0x04,0x00,0x00,0x00,
    0xc0,0xf9,0xff,0xff,0x18,0x00,0x00,0x00,0x28,0x00,0x00,0x00,
    0x48,0x00,0x00,0x00,0x0b,0x00,0x00,0x00,0x00,0x00,0x00,0x09,
    0xbc,0x00,0x00,0x00,0x04,0x00,0x00,0x00,0xff,0xff,0xff,0xff,
    0x06,0x00,0x00,0x00,0x06,0x00,0x00,0x00,0x08,0x00,0x00,0x00,
    0xac,0xf9,0xff,0xff,0x08,0x00,0x00,0x00,0x14,0x00,0x00,0x00,
    0x01,0x00,0x00,0x00,0x80,0xff,0xff,0xff,0xff,0xff,0xff,0xff,
    0x00,0x00,0x00,0x00,0x01,0x00,0x00,0x00,0x9b,0x58,0x5c,0x3e,
    0x7b,0x00,0x00,0x00,0x73,0x65,0x71,0x75,0x65,0x6e,0x74,0x69,
    0x61,0x6c,0x2f,0x63,0x6f,0x6e,0x76,0x32,0x64,0x2f,0x52,0x65,
    0x6c,0x75,0x3b,0x73,0x65,0x71,0x75,0x65,0x6e,0x74,0x69,0x61,
    0x6c,0x2f,0x63,0x6f,0x6e,0x76,0x32,0x64,0x2f,0x42,0x69,0x61,
    0x73,0x41,0x64,0x64,0x3b,0x73,0x65,0x71,0x75,0x65,0x6e,0x74,
    0x69,0x61,0x6c,0x2f,0x63,0x6f,0x6e,0x76,0x32,0x64,0x2f,0x43,
    0x6f,0x6e,0x76,0x32,0x44,0x3b,0x73,0x65,0x71,0x75,0x65,0x6e,
    0x74,0x69,0x61,0x6c,0x2f,0x63,0x6f,0x6e,0x76,0x32,0x64,0x2f,
    0x42,0x69,0x61,0x73,0x41,0x64,0x64,0x2f,0x52,0x65,0x61,0x64,
    0x56,0x61,0x72,0x69,0x61,0x62,0x6c,0x65,0x4f,0x70,0x2f,0x72,
    0x65,0x73,0x6f,0x75,0x72,0x63,0x65,0x00,0x04,0x00,0x00,0x00,
    0x01,0x00,0x00,0x00,0x06,0x00,0x00,0x00,0x06,0x00,0x00,0x00,
    0x08,0x00,0x00,0x00,0x1e,0xfb,0xff,0xff,0x14,0x00,0x00,0x00,
    0x30,0x00,0x00,0x00,0x0a,0x00,0x00,0x00,0x00,0x00,0x00,0x02,
    0x5c,0x00,0x00,0x00,0x7c,0xfa,0xff,0xff,0x08,0x00,0x00,0x00,
    0x10,0x00,0x00,0x00,0x01,0x00,0x00,0x00,0x00,0x00,0x00,0x00,
    0x00,0x00,0x00,0x00,0x01,0x00,0x00,0x00,0x25,0xf6,0x0b,0x3a,
    0x32,0x00,0x00,0x00,0x73,0x65,0x71,0x75,0x65,0x6e,0x74,0x69,
    0x61,0x6c,0x2f,0x64,0x65,0x6e,0x73,0x65,0x5f,0x31,0x2f,0x42,
    0x69,0x61,0x73,0x41,0x64,0x64,0x2f,0x52,0x65,0x61,0x64,0x56,
    0x61,0x72,0x69,0x61,0x62,0x6c,0x65,0x4f,0x70,0x2f,0x72,0x65,
    0x73,0x6f,0x75,0x72,0x63,0x65,0x00,0x00,0x01,0x00,0x00,0x00,
    0x02,0x00,0x00,0x00,0x96,0xfb,0xff,0xff,0x14,0x00,0x00,0x00,
    0x34,0x00,0x00,0x00,0x09,0x00,0x00,0x00,0x00,0x00,0x00,0x09,
    0x48,0x00,0x00,0x00,0xf4,0xfa,0xff,0xff,0x08,0x00,0x00,0x00,
    0x14,0x00,0x00,0x00,0x01,0x00,0x00,0x00,0x00,0x00,0x00,0x00,
    0x00,0x00,0x00,0x00,0x00,0x00,0x00,0x00,0x01,0x00,0x00,0x00,
    0x69,0x50,0xd0,0x3c,0x19,0x00,0x00,0x00,0x73,0x65,0x71,0x75,
    0x65,0x6e,0x74,0x69,0x61,0x6c,0x2f,0x64,0x65,0x6e,0x73,0x65,
    0x5f,0x31,0x2f,0x4d,0x61,0x74,0x4d,0x75,0x6c,0x00,0x00,0x00,
    0x02,0x00,0x00,0x00,0x02,0x00,0x00,0x00,0x02,0x00,0x00,0x00,
    0xfe,0xfb,0xff,0xff,0x14,0x00,0x00,0x00,0x30,0x00,0x00,0x00,
    0x08,0x00,0x00,0x00,0x00,0x00,0x00,0x02,0x5c,0x00,0x00,0x00,
    0x5c,0xfb,0xff,0xff,0x08,0x00,0x00,0x00,0x10,0x00,0x00,0x00,
    0x01,0x00,0x00,0x00,0x00,0x00,0x00,0x00,0x00,0x00,0x00,0x00,
    0x01,0x00,0x00,0x00,0x5c,0x72,0xdf,0x3a,0x30,0x00,0x00,0x00,
    0x73,0x65,0x71,0x75,0x65,0x6e,0x74,0x69,0x61,0x6c,0x2f,0x64,
    0x65,0x6e,0x73,0x65,0x2f,0x42,0x69,0x61,0x73,0x41,0x64,0x64,
    0x2f,0x52,0x65,0x61,0x64,0x56,0x61,0x72,0x69,0x61,0x62,0x6c,
    0x65,0x4f,0x70,0x2f,0x72,0x65,0x73,0x6f,0x75,0x72,0x63,0x65,
    0x00,0x00,0x00,0x00,0x01,0x00,0x00,0x00,0x02,0x00,0x00,0x00,
    0x76,0xfc,0xff,0xff,0x14,0x00,0x00,0x00,0x30,0x00,0x00,0x00,
    0x07,0x00,0x00,0x00,0x00,0x00,0x00,0x09,0x40,0x00,0x00,0x00,
    0xd4,0xfb,0xff,0xff,0x08,0x00,0x00,0x00,0x10,0x00,0x00,0x00,
    0x01,0x00,0x00,0x00,0x00,0x00,0x00,0x00,0x00,0x00,0x00,0x00,
    0x01,0x00,0x00,0x00,0x30,0x0b,0x32,0x3d,0x17,0x00,0x00,0x00,
    0x73,0x65,0x71,0x75,0x65,0x6e,0x74,0x69,0x61,0x6c,0x2f,0x64,
    0x65,0x6e,0x73,0x65,0x2f,0x4d,0x61,0x74,0x4d,0x75,0x6c,0x00,
    0x02,0x00,0x00,0x00,0x02,0x00,0x00,0x00,0x04,0x00,0x00,0x00,
    0xd6,0xfc,0xff,0xff,0x14,0x00,0x00,0x00,0x58,0x00,0x00,0x00,
    0x06,0x00,0x00,0x00,0x00,0x00,0x00,0x02,0xbc,0x00,0x00,0x00,
    0x34,0xfc,0xff,0xff,0x08,0x00,0x00,0x00,0x2c,0x00,0x00,0x00,
    0x04,0x00,0x00,0x00,0x00,0x00,0x00,0x00,0x00,0x00,0x00,0x00,
    0x00,0x00,0x00,0x00,0x00,0x00,0x00,0x00,0x00,0x00,0x00,0x00,
    0x00,0x00,0x00,0x00,0x00,0x00,0x00,0x00,0x00,0x00,0x00,0x00,
    0x00,0x00,0x00,0x00,0x04,0x00,0x00,0x00,0x60,0x70,0x3c,0x3b,
    0x47,0xbe,0x92,0x3b,0x44,0x9f,0x79,0x3b,0x0a,0x23,0x76,0x3b,
    0x6a,0x00,0x00,0x00,0x73,0x65,0x71,0x75,0x65,0x6e,0x74,0x69,
    0x61,0x6c,0x2f,0x63,0x6f,0x6e,0x76,0x32,0x64,0x5f,0x31,0x2f,
    0x42,0x69,0x61,0x73,0x41,0x64,0x64,0x3b,0x73,0x65,0x71,0x75,
    0x65,0x6e,0x74,0x69,0x61,0x6c,0x2f,0x63,0x6f,0x6e,0x76,0x32,
    0x64,0x5f,0x31,0x2f,0x43,0x6f,0x6e,0x76,0x32,0x44,0x3b,0x73,
    0x65,0x71,0x75,0x65,0x6e,0x74,0x69,0x61,0x6c,0x2f,0x63,0x6f,
    0x6e,0x76,0x32,0x64,0x5f,0x31,0x2f,0x42,0x69,0x61,0x73,0x41,
    0x64,0x64,0x2f,0x52,0x65,0x61,0x64,0x56,0x61,0x72,0x69,0x61,
    0x62,0x6c,0x65,0x4f,0x70,0x2f,0x72,0x65,0x73,0x6f,0x75,0x72,
    0x63,0x65,0x00,0x00,0x01,0x00,0x00,0x00,0x04,0x00,0x00,0x00,
    0xae,0xfd,0xff,0xff,0x14,0x00,0x00,0x00,0x54,0x00,0x00,0x00,
    0x05,0x00,0x00,0x00,0x00,0x00,0x00,0x09,0x68,0x00,0x00,0x00,
    0x0c,0xfd,0xff,0xff,0x08,0x00,0x00,0x00,0x28,0x00,0x00,0x00,
    0x04,0x00,0x00,0x00,0x00,0x00,0x00,0x00,0x00,0x00,0x00,0x00,
    0x00,0x00,0x00,0x00,0x00,0x00,0x00,0x00,0x00,0x00,0x00,0x00,
    0x00,0x00,0x00,0x00,0x00,0x00,0x00,0x00,0x00,0x00,0x00,0x00,
    0x04,0x00,0x00,0x00,0x15,0xee,0x5a,0x3c,0xd3,0x7c,0xaa,0x3c,
    0xae,0x01,0x91,0x3c,0x62,0xfb,0x8e,0x3c,0x1a,0x00,0x00,0x00,
    0x73,0x65,0x71,0x75,0x65,0x6e,0x74,0x69,0x61,0x6c,0x2f,0x63,
    0x6f,0x6e,0x76,0x32,0x64,0x5f,0x31,0x2f,0x43,0x6f,0x6e,0x76,
    0x32,0x44,0x00,0x00,0x04,0x00,0x00,0x00,0x04,0x00,0x00,0x00,
    0x03,0x00,0x00,0x00,0x03,0x00,0x00,0x00,0x08,0x00,0x00,0x00,
    0x3e,0xfe,0xff,0xff,0x14,0x00,0x00,0x00,0x84,0x00,0x00,0x00,
    0x04,0x00,0x00,0x00,0x00,0x00,0x00,0x02,0xe4,0x00,0x00,0x00,
    0x9c,0xfd,0xff,0xff,0x08,0x00,0x00,0x00,0x48,0x00,0x00,0x00,
    0x08,0x00,0x00,0x00,0x00,0x00,0x00,0x00,0x00,0x00,0x00,0x00,
    0x00,0x00,0x00,0x00,0x00,0x00,0x00,0x00,0x00,0x00,0x00,0x00,
    0x00,0x00,0x00,0x00,0x00,0x00,0x00,0x00,0x00,0x00,0x00,0x00,
    0x00,0x00,0x00,0x00,0x00,0x00,0x00,0x00,0x00,0x00,0x00,0x00,
    0x00,0x00,0x00,0x00,0x00,0x00,0x00,0x00,0x00,0x00,0x00,0x00,
    0x00,0x00,0x00,0x00,0x00,0x00,0x00,0x00,0x08,0x00,0x00,0x00,
    0xc6,0x4b,0x9b,0x3a,0x60,0x2b,0x50,0x3a,0xe7,0x6b,0xac,0x3a,
    0x1a,0xd2,0x70,0x3b,0x77,0x11,0x23,0x3a,0xc6,0xce,0x71,0x3a,
    0xd8,0x21,0x9f,0x3a,0xb7,0x1e,0x13,0x3a,0x64,0x00,0x00,0x00,
    0x73,0x65,0x71,0x75,0x65,0x6e,0x74,0x69,0x61,0x6c,0x2f,0x63,
    0x6f,0x6e,0x76,0x32,0x64,0x2f,0x42,0x69,0x61,0x73,0x41,0x64,
    0x64,0x3b,0x73,0x65,0x71,0x75,0x65,0x6e,0x74,0x69,0x61,0x6c,
    0x2f,0x63,0x6f,0x6e,0x76,0x32,0x64,0x2f,0x43,0x6f,0x6e,0x76,
    0x32,0x44,0x3b,0x73,0x65,0x71,0x75,0x65,0x6e,0x74,0x69,0x61,
    0x6c,0x2f,0x63,0x6f,0x6e,0x76,0x32,0x64,0x2f,0x42,0x69,0x61,
    0x73,0x41,0x64,0x64,0x2f,0x52,0x65,0x61,0x64,0x56,0x61,0x72,
    0x69,0x61,0x62,0x6c,0x65,0x4f,0x70,0x2f,0x72,0x65,0x73,0x6f,
    0x75,0x72,0x63,0x65,0x00,0x00,0x00,0x00,0x01,0x00,0x00,0x00,
    0x08,0x00,0x00,0x00,0x3e,0xff,0xff,0xff,0x14,0x00,0x00,0x00,
    0x84,0x00,0x00,0x00,0x03,0x00,0x00,0x00,0x00,0x00,0x00,0x09,
    0x98,0x00,0x00,0x00,0x9c,0xfe,0xff,0xff,0x08,0x00,0x00,0x00,
    0x48,0x00,0x00,0x00,0x08,0x00,0x00,0x00,0x00,0x00,0x00,0x00,
    0x00,0x00,0x00,0x00,0x00,0x00,0x00,0x00,0x00,0x00,0x00,0x00,
    0x00,0x00,0x00,0x00,0x00,0x00,0x00,0x00,0x00,0x00,0x00,0x00,
    0x00,0x00,0x00,0x00,0x00,0x00,0x00,0x00,0x00,0x00,0x00,0x00,
    0x00,0x00,0x00,0x00,0x00,0x00,0x00,0x00,0x00,0x00,0x00,0x00,
    0x00,0x00,0x00,0x00,0x00,0x00,0x00,0x00,0x00,0x00,0x00,0x00,
    0x08,0x00,0x00,0x00,0x5e,0x9d,0x66,0x3c,0xe0,0x90,0x1a,0x3c,
    0xe7,0x05,0x80,0x3c,0x3c,0xcf,0x32,0x3d,0x10,0x28,0xf2,0x3b,
    0xd8,0x8a,0x33,0x3c,0xbf,0x4f,0x6c,0x3c,0x2d,0x79,0xda,0x3b,
    0x18,0x00,0x00,0x00,0x73,0x65,0x71,0x75,0x65,0x6e,0x74,0x69,
    0x61,0x6c,0x2f,0x63,0x6f,0x6e,0x76,0x32,0x64,0x2f,0x43,0x6f,
    0x6e,0x76,0x32,0x44,0x00,0x00,0x00,0x00,0x04,0x00,0x00,0x00,
    0x08,0x00,0x00,0x00,0x03,0x00,0x00,0x00,0x03,0x00,0x00,0x00,
    0x01,0x00,0x00,0x00,0x00,0x00,0x0e,0x00,0x18,0x00,0x14,0x00,
    0x13,0x00,0x0c,0x00,0x08,0x00,0x04,0x00,0x0e,0x00,0x00,0x00,
    0x18,0x00,0x00,0x00,0x18,0x00,0x00,0x00,0x02,0x00,0x00,0x00,
    0x00,0x00,0x00,0x02,0x4c,0x00,0x00,0x00,0x04,0x00,0x04,0x00,
    0x04,0x00,0x00,0x00,0x3a,0x00,0x00,0x00,0x73,0x65,0x71,0x75,
    0x65,0x6e,0x74,0x69,0x61,0x6c,0x2f,0x67,0x6c,0x6f,0x62,0x61,
    0x6c,0x5f,0x61,0x76,0x65,0x72,0x61,0x67,0x65,0x5f,0x70,0x6f,
    0x6f,0x6c,0x69,0x6e,0x67,0x32,0x64,0x2f,0x4d,0x65,0x61,0x6e,
    0x2f,0x72,0x65,0x64,0x75,0x63,0x74,0x69,0x6f,0x6e,0x5f,0x69,
    0x6e,0x64,0x69,0x63,0x65,0x73,0x00,0x00,0x01,0x00,0x00,0x00,
    0x02,0x00,0x00,0x00,0x14,0x00,0x1c,0x00,0x18,0x00,0x17,0x00,
    0x10,0x00,0x0c,0x00,0x08,0x00,0x00,0x00,0x00,0x00,0x04,0x00,
    0x14,0x00,0x00,0x00,0x18,0x00,0x00,0x00,0x34,0x00,0x00,0x00,
    0x50,0x00,0x00,0x00,0x01,0x00,0x00,0x00,0x00,0x00,0x00,0x09,
    0x50,0x00,0x00,0x00,0x04,0x00,0x00,0x00,0xff,0xff,0xff,0xff,
    0x08,0x00,0x00,0x00,0x08,0x00,0x00,0x00,0x01,0x00,0x00,0x00,
    0x0c,0x00,0x0c,0x00,0x00,0x00,0x00,0x00,0x08,0x00,0x04,0x00,
    0x0c,0x00,0x00,0x00,0x08,0x00,0x00,0x00,0x10,0x00,0x00,0x00,
    0x01,0x00,0x00,0x00,0x80,0xff,0xff,0xff,0xff,0xff,0xff,0xff,
    0x01,0x00,0x00,0x00,0xf4,0x63,0xac,0x3d,0x07,0x00,0x00,0x00,
    0x69,0x6e,0x70,0x75,0x74,0x5f,0x31,0x00,0x04,0x00,0x00,0x00,
    0x01,0x00,0x00,0x00,0x08,0x00,0x00,0x00,0x08,0x00,0x00,0x00,
    0x01,0x00,0x00,0x00,0x04,0x00,0x00,0x00,0x4c,0x00,0x00,0x00,
    0x2c,0x00,0x00,0x00,0x18,0x00,0x00,0x00,0x04,0x00,0x00,0x00,
    0xd0,0xff,0xff,0xff,0x09,0x00,0x00,0x00,0x04,0x00,0x00,0x00,
    0x00,0x00,0x00,0x09,0xe0,0xff,0xff,0xff,0x28,0x00,0x00,0x00,
    0x02,0x00,0x00,0x00,0x00,0x00,0x00,0x28,0xf0,0xff,0xff,0xff,
    0x11,0x00,0x00,0x00,0x02,0x00,0x00,0x00,0x00,0x00,0x00,0x11,
    0x0c,0x00,0x10,0x00,0x0f,0x00,0x00,0x00,0x08,0x00,0x04,0x00,
    0x0c,0x00,0x00,0x00,0x03,0x00,0x00,0x00,0x03,0x00,0x00,0x00,
    0x00,0x00,0x00,0x03
};
